#include "board.h"

// 100th generation
float WEIGHTS[42][66] = {{-0.369346, -0.136871, -0.562677, -0.0256215, -0.0845674, -0.243036, -0.0739798, -0.0267107, 0.251511, -0.0840213, -0.732506, 0.0621342, -0.127345, -0.110217, 0.0829326, -0.228464, 0.140166, 0.00745328, -0.729322, 0.143847, 0.0493622, 0.188383, -0.0767162, -0.156266, 0.183807, 0.452504, 0.592283, 0.549497, 0.016724, -0.0902142, -0.376917, 0.0483987, -0.100715, 0.265458, 0.662417, -0.0931576, -0.277572, -0.317878, -0.206446, -0.0171032, 0.585173, -0.142463, -0.411966, 0.09979, -0.164063, -0.2152, -0.0601015, -0.242822, -0.0688408, -0.543457, -0.618283, 0.254493, -0.257351, -0.207475, -0.0800916, -0.484651, -0.238483, -0.341622, -0.486805, -0.0462443, -0.144452, -0.342564, -0.187142, -0.127345, -0.28147, -0.245398},
{0.127657, 0.195993, 0.0170475, 0.0598826, 0.0608109, -0.0145907, -0.0342561, -0.502557, -0.0652867, -0.0215482, 0.168625, -0.0438758, -0.0632471, -0.0409138, 0.0308542, -0.421457, -0.227917, 0.0698697, -0.00868367, -0.0855028, 0.0475512, -0.123632, 0.0217926, -0.422198, -0.150194, -0.0769859, -0.22237, -0.147493, -0.010882, -0.0998273, -0.0838478, -0.404754, -0.050897, -0.0973196, -0.147913, -0.0707919, 0.0472203, 0.0439429, 0.0309742, -0.58867, -0.348835, 0.195837, -0.37034, -0.013948, 0.0167339, 0.0741335, 0.120558, -0.454551, -0.593055, 0.110148, -0.0454176, 0.104982, -0.0789753, -0.11347, -0.00672964, -0.658786, -0.868716, 0.0982135, 0.161443, -0.350541, -0.0429257, -0.0260879, 0.364922, -0.691327, 0.141022, -0.44822},
{0.0522727, -0.0266804, 0.0237869, -0.0455666, 0.000895034, -0.0696933, -0.00775103, 0.112976, 0.0278412, -0.102847, -0.07103, -0.0195996, 0.0250061, -0.0235789, -0.0468863, 0.00192618, 0.00168423, 0.00270345, -0.0215105, 0.0314219, 0.031255, 0.0303419, -0.077775, 0.0765699, -0.0761236, -0.00733851, 0.016808, 0.00999987, -0.0321288, -0.00882356, -0.0231082, -0.0300135, 0.0708856, -0.0781699, -0.0274359, -0.118675, -0.123887, -0.0922113, -0.0848962, 0.000774534, 0.0233271, 0.0154722, -0.0262815, -0.188272, -0.231194, -0.0156328, -0.0601676, 0.0514594, -0.24669, -0.173107, -0.164266, -0.305735, -0.572171, -0.290794, -0.179851, -0.288091, 0.0611322, -0.492398, -0.541406, -0.723784, -0.771191, -1.7723, -1.0405, -0.557782, -0.126059, 1.39374},
{-0.181116, -0.225116, -0.306368, -0.025993, -0.160044, -0.832255, -0.411407, -0.325455, -0.437122, 0.206371, -0.22528, -0.515996, 0.116642, -0.479809, -0.291253, -0.169857, -0.0824574, 0.0250433, -0.201211, -0.16916, -0.478289, -0.131593, -0.625482, -0.621632, -0.27233, 0.0686099, -0.129857, -0.100253, -0.416015, -0.0055898, -0.044919, -0.0708737, -0.0756649, -0.282921, -0.306379, 0.113538, -0.394103, 0.155652, -0.270726, -0.362325, 0.201345, 0.0729551, -0.201164, 0.0620118, -0.390041, -0.534786, -0.247421, -0.0533312, -0.0390974, 0.0991482, -0.327876, 0.0223344, -0.0633595, -0.102462, -0.677849, 0.0280912, -0.245197, 0.0565701, -0.0573268, 0.36417, -0.280282, -0.320398, -0.0182509, -0.121219, -0.183805, 0.37251},
{-0.518812, -0.125007, 0.177381, -0.561018, 0.16222, -0.244071, -0.660165, 0.206026, -0.468694, 0.293569, -0.28542, 0.0201359, 0.100366, 0.471583, -0.404859, -0.33448, -0.437044, 0.257777, -0.480523, 0.181246, -0.593705, 0.314597, -0.218807, -0.111581, -0.49982, -0.338766, 0.203626, -0.0516625, 0.325033, -0.110998, -0.428771, -0.446259, 0.245912, -0.549752, -0.281282, 0.0956992, -0.0304071, -0.0722881, -0.0655697, -0.0226693, -0.520674, 0.178274, 0.365037, -0.0157932, -0.0318286, -0.253095, 0.0942712, 0.00990083, -0.543797, 0.0120308, -0.0541167, -0.649286, 0.0112957, 0.212046, 0.0334307, 0.135419, -0.563526, -0.13906, -0.26394, -0.47324, 0.154891, -0.236528, -0.471257, -0.066283, -0.230676, -0.107439},
{-0.192635, -0.288938, 0.136322, -0.126087, 0.126035, -0.224673, -0.0381693, 0.00605562, -0.109097, -0.432029, 0.441, 0.0810385, 0.215447, -0.183, 0.150467, -0.00661697, -0.339363, 0.153639, -0.271472, -0.466831, -0.356047, -0.44446, -0.293396, 0.150886, -0.0395172, -0.301746, -0.20655, 0.0277664, -0.0655264, -0.42551, -0.352574, 0.197482, -0.0113396, -0.606969, -0.319017, -0.0312085, -0.145492, -0.472704, -0.352544, -0.519837, -0.388505, -0.685262, 0.160763, -0.523051, -0.0420053, -0.339586, 0.0982617, 0.178581, -0.726976, 0.494974, 0.274215, -0.347609, -0.491254, -0.579726, -0.810003, -0.23149, -0.0362406, -0.0418459, -0.368024, 0.344939, -0.0195648, -0.28981, 0.0541283, -0.619976, -0.184936, 0.178538},
{-0.571139, -0.244491, 0.111, -0.406061, -0.114915, -0.65282, -0.229313, -0.0667274, 0.00113108, -0.0347486, -0.392567, -0.582878, -0.137519, -0.500018, -0.669502, -0.273328, -0.553283, -0.212441, -0.0811353, -0.4343, -0.272658, -0.627672, -0.0363443, 0.039381, -0.352696, -0.0943413, -0.211506, -0.113367, -0.259944, -0.20091, 0.18596, -0.12896, -0.460823, 0.12881, 0.241336, 0.156766, 0.142587, -0.0386386, -0.192304, -0.140384, -0.226429, 0.0329471, -0.0396626, 0.153716, 0.1615, -0.100808, -0.296426, 0.133743, 0.304465, 0.229806, -0.525093, -0.270699, 0.221379, 0.0453997, -0.548137, -0.509031, -0.265587, -0.229385, 5.95342e-05, 0.0011099, 0.224094, -0.0725413, -0.393045, -0.629367, -0.202734, 0.0343009},
{0.439485, 0.235122, -0.0118446, -0.0225389, -0.0323365, 0.0721246, -0.281418, -0.711177, 0.245096, -0.0247454, 0.129876, -0.0637324, -0.0935304, -0.0967494, -0.169232, -0.759977, 0.188418, 0.0411165, 0.0693799, -0.0550247, -0.0805024, -0.0683034, -0.28539, -0.30492, -0.248628, 0.174548, 0.101075, 0.0356871, -0.0214204, -0.363828, -0.218367, -0.32741, -0.394096, 0.221557, 0.129076, 0.0456484, -0.0424128, -0.139861, -0.0482672, -0.469907, 0.0712884, -0.0387452, 0.171523, -0.0198174, -0.111158, 0.0526109, -0.000981413, -0.166032, 0.388074, 0.106874, 0.179649, -0.054575, -0.0540531, -0.0141614, -0.0738111, -0.384647, 0.670844, 0.187567, -0.122193, -0.102068, 0.00072555, 0.00979552, -0.181001, -0.514662, -0.163534, -0.555381},
{-0.118278, -0.174928, -0.0270101, 0.0219165, 0.0273641, 0.042361, -0.0370165, 0.0176281, -0.717546, 0.0154214, -0.0344284, -0.0389688, -0.00369469, -0.0111534, -0.0422418, 0.00293108, -0.510983, -0.192915, -0.0603796, -0.0315415, -0.0149945, -0.00991458, -0.0359924, 0.0341283, -2.12072, -0.251471, -0.137373, -0.0783887, -0.0461662, 0.0176893, 0.0184873, 0.0625156, -2.43813, -0.264985, -0.122808, -0.0963645, -0.037016, 0.0233853, 0.0303751, -0.0253276, -0.642891, -0.163136, -0.0324506, -0.000446326, -0.00499497, -0.0236676, -0.0637453, 0.00230489, -0.55895, -0.0765253, -0.0628192, -0.0093839, 0.0225494, -0.0328588, -0.0552613, 0.0470027, -0.255048, -0.106331, 0.0496518, 0.0280486, 0.0369755, 0.00575929, -0.0674, -0.0467772, -0.129825, 1.32789},
{-0.222915, 0.28207, 0.0525136, 0.199631, 0.179419, 0.353645, 0.474044, -0.0467936, 0.18647, -0.262803, -0.119334, -0.237882, -0.930067, -0.930568, -0.49187, -0.681181, 0.269464, 0.0475098, 0.315207, -0.336969, 0.117514, -0.236211, -0.570662, -1.0622, -0.435962, 0.0978, -0.198414, -0.366232, -0.339084, -0.850931, -0.132623, -0.769212, 0.28353, -0.0480075, -0.114986, -0.387211, -0.0786937, -0.132714, 0.460601, -0.313497, 0.0465086, -0.17233, -0.136072, -0.0930428, -0.0340092, 0.240626, 0.220902, -0.255755, -0.219396, -0.168346, 0.015283, -0.0605117, -0.2081, -0.195893, -0.193257, -0.0231655, -0.028886, -0.233236, 0.05658, 0.0273877, 0.0144148, 0.130129, 0.309925, 0.0580954, -0.240076, 0.163254},
{-0.897052, -0.0714534, 0.944903, 0.524939, 0.544095, 0.861658, 0.395791, -0.112723, -0.229875, -0.559998, -0.0229456, 0.192709, 0.354283, 0.102056, -0.253447, -0.222837, -0.165082, -0.259555, -0.136391, 0.149116, 0.273375, -0.0384505, -0.246631, -0.0356323, -0.104325, -0.108698, -0.175407, 0.0804619, 0.0990688, -0.0148788, -0.0611182, -0.170183, 0.0499599, -0.243682, -0.210997, -0.0937105, -0.0825156, -0.151007, -0.0798681, -0.125982, 0.125114, -0.257279, -0.225232, -0.226216, -0.185818, -0.0803935, -0.149003, -0.08022, -0.326468, -0.613729, -0.193901, -0.212945, -0.155966, -0.0734997, -0.234303, -0.287937, -0.812103, -0.603424, -0.0523062, 0.558138, -0.154252, -0.122196, -0.416263, -0.229787, -0.470229, -0.421755},
{-0.142259, 0.14965, -0.0584573, 0.191114, -0.517578, -0.194235, -0.311731, -0.632433, 0.135957, -0.222573, 0.227123, -0.472771, 0.19822, 0.0509045, 0.0500011, 0.216804, -0.25908, 0.0647192, -0.526487, -0.418056, -0.00263915, 0.183622, -0.616184, -0.225341, -0.250619, -0.222678, -0.502431, -0.238261, -0.458723, 0.220874, -0.432147, 0.181227, 0.194438, 0.0148876, -0.198463, 0.244766, -0.399793, 0.217492, 0.277263, -0.546954, -0.20477, 0.187129, -0.381385, -0.274828, 0.0835549, -0.533568, -0.368053, -0.42439, 0.0520177, -0.401134, -0.187966, -0.129144, -0.325516, -0.143976, 0.150911, 0.0275312, -0.654343, -0.602073, -0.472739, -0.347821, -0.535649, -0.305449, 0.335637, 0.29142, -0.652669, 0.000905704},
{-0.303811, 0.0121083, -0.0113461, -0.0471445, 0.0237806, -0.0459315, 0.0218787, -0.150584, 0.00360701, 0.124157, 0.0701145, 0.0510111, 0.00192951, 0.0500143, 0.0569503, -0.0282022, -0.0193434, 0.0204996, -0.0221155, 0.00983991, -0.0283305, -0.0037975, 0.00727242, -0.0921831, 0.0185317, 0.0473807, 0.0113276, -0.00619751, -0.0124759, -0.00106141, 0.0523187, 0.0321112, -0.0399778, 0.129963, 0.0659593, 0.0742699, 0.0767493, 0.0852334, 0.0655164, -0.0241111, -0.0225247, 0.0662352, 0.0622563, 0.218133, 0.153037, -0.0235483, 0.0632903, -0.0606485, 0.261176, 0.166918, 0.160057, 0.250741, 0.261894, 0.150965, 0.198367, 0.247156, -0.264825, -0.225417, -0.0147896, -3.20906, 0.172614, -0.05507, 0.139951, -0.443684, 0.118787, 1.04485},
{-0.0690948, -0.0466532, 0.0405604, -0.0790791, 0.0568112, -0.0676069, -0.0950227, -0.443093, 0.00115931, -0.07834, -0.0289671, -0.0859332, -0.0582882, 0.133922, 0.0709814, -1.23288, -0.0253245, -0.0265834, -0.0163183, -0.032061, -0.129621, -0.0236912, -0.24396, -1.27351, -0.0832756, -0.028576, -0.0159877, -0.102526, -0.0979431, -0.360266, -0.500136, -1.55627, -0.0364278, -0.0202671, 0.0173295, -0.014077, -0.076097, -0.313352, -0.338643, -1.28341, 0.0491629, -0.0635134, 0.0369968, 0.0105495, -0.00327157, 0.0690963, -0.0624411, -0.536693, -0.0127401, -0.154799, -0.0173298, -0.0633785, -0.127503, 0.0998734, 0.203233, -0.138216, -0.195776, -0.150155, 0.00785237, 0.221274, -0.0694254, 0.0249383, -0.178485, 0.527439, -0.0556511, 0.831246},
{0.0212152, -0.0652378, -0.00524153, -0.0347966, -0.0148904, -0.0169703, -0.0971239, 0.360966, -0.0554271, -0.0144858, -0.0491341, -0.0497633, -0.0648717, -0.0138287, -0.0245757, -0.185991, -0.0173824, -0.0661223, 0.00210122, -0.0235267, -0.01925, -0.0295101, -0.0235656, -0.31731, -0.00910738, -0.0305629, 0.00135051, -0.023456, -0.0412567, -0.123165, -0.124296, -0.224049, 0.0419934, -0.031323, 0.0114674, -0.0331581, -0.0741518, -0.233513, -0.359947, -0.659576, -0.0289702, -0.101265, -0.0333581, -0.0373746, -0.0964195, -0.157615, -0.319644, -2.69767, -0.109958, -0.222254, -0.0862797, -0.0339944, -0.164835, -0.118404, -0.282432, -1.78144, -0.105256, -0.0639037, 0.10877, 0.174334, -0.112022, 0.0505022, -0.520503, -1.43425, -0.130218, 1.71329},
{0.649215, -0.553862, 0.304971, -0.482884, -0.301228, 0.3517, 0.48353, 0.232778, 0.193056, 0.389791, -0.670593, -0.579496, -0.581894, -0.576979, 0.229115, -0.084609, -0.223211, -0.621544, 0.24642, -0.22684, -0.334048, 0.0402052, -0.0921654, 0.0554521, 0.190499, -0.45727, -0.279917, -0.0365116, -0.0818311, -0.103645, -0.393423, 0.0700327, -0.449661, -0.600244, 0.173206, -0.21847, 0.0612113, -0.301108, -0.448353, -0.122559, 0.538031, -0.387986, 0.0352731, -0.0922295, -0.497104, 0.55113, -0.165728, -0.21401, 0.213945, -0.313458, -0.174704, -0.547592, -0.584608, -0.467984, 0.286726, 0.0338882, -0.140754, 0.25006, -0.43873, -0.298607, 0.235175, -0.286371, -0.329068, 0.882003, -0.400558, 0.11213},
{-0.369485, -0.0813151, -0.112089, -0.442228, 0.0431393, -0.468338, 0.314364, -0.00344618, 0.26589, 0.114177, 0.0142325, -0.319096, -0.157881, -0.120802, -0.274582, 0.221137, -0.425682, -0.401773, -0.162097, 0.10853, -0.364687, 0.056633, -0.213992, -0.422745, 0.116036, 0.114996, -0.376029, -0.393151, -0.341656, -0.15375, 0.206141, -0.30364, -0.221118, -0.243117, -0.137902, -0.383837, 0.218633, 0.0488066, -0.0233735, -0.446048, -0.296017, 0.138392, 0.192273, 0.393372, -0.263544, -0.208011, -0.303071, -0.297619, 0.0197519, -0.139068, -0.463212, 0.207431, 0.442761, -0.442775, 0.139247, -0.153495, -0.459805, 0.337309, 0.361971, -0.353502, -0.70182, 0.039788, -0.111331, -0.000829159, -0.0757499, -0.132771},
{0.261213, -0.101037, -0.441885, -0.341196, -0.407127, -0.307275, -0.0053376, 0.300572, -0.336141, -0.228086, 0.189585, -0.111708, 0.192398, -0.385836, 0.263745, -0.230805, -0.317214, -0.117653, -0.328104, 0.0183988, 0.184237, 0.210218, 0.0537913, -0.189766, -0.112332, 0.114083, -0.0962617, -0.19646, -0.325749, 0.336105, -0.582369, -0.513607, -0.303115, -0.310415, 0.0294701, -0.0687635, 0.088248, 0.298239, -0.249725, 0.153926, -0.421688, -0.275117, -0.360903, -0.128811, -0.183048, 0.230957, -0.423916, -0.142955, 0.106616, -0.0596012, 0.339479, -0.501068, -0.11644, -0.196739, -0.0895911, 0.0402529, -0.172867, -0.421997, -0.313188, 0.0143653, 0.408034, -0.319401, 0.0166705, -0.176762, -0.0682607, -0.117396},
{0.551185, 0.156471, -0.0633636, 0.0360789, 0.0569814, -0.032097, 0.108027, 0.000154973, 0.158933, 0.142231, -0.025329, 0.0782337, 0.00273979, 0.0299882, 0.0823284, 0.13593, -0.00225048, -0.0291158, -0.0287165, 0.0480339, 0.000835017, 0.017199, -0.00417816, -0.00641204, 0.00822948, 0.0630212, 0.0532091, 0.0197155, 0.00405915, 0.0260385, 0.0555769, 0.132487, -0.0613313, 0.0601237, 0.0708672, 0.0336531, 0.0331732, 0.0283539, -0.0355617, 0.112492, 0.0342105, -0.120703, 0.00735757, 0.0960055, 0.0555648, -0.084431, -0.0956008, -0.067021, 0.0205231, -0.134503, -0.0475475, 0.0905504, 0.050382, -0.0311765, 0.0443439, 0.0268063, -0.863657, -0.554542, -0.168485, -3.21741, 0.0240966, -0.308567, -0.287057, -0.566485, 0.00823614, -0.699715},
{-0.639834, -0.269669, -0.0636135, -0.0903399, -0.171138, 0.050812, -0.161307, -0.24519, -0.128213, -0.250923, -0.122373, -0.184357, -0.188081, -0.108721, -0.0438701, -0.406396, -0.0416414, -0.145321, 0.00061781, -0.193927, -0.159543, -0.068787, -0.088356, -0.0588111, 0.00351456, -0.168491, -0.196761, -0.172893, -0.0584514, -0.125658, -0.0664631, -0.151368, 0.0221238, -0.225029, -0.19508, -0.0980999, 0.04053, 0.0207616, 0.122574, -0.0276293, 0.133288, -0.248121, -0.0925418, -0.0877317, 0.0204231, 0.203373, 0.030005, 0.221969, -0.301228, -0.438453, -0.160329, -0.0804803, 0.112562, 0.0727382, -0.0431808, 0.523529, -1.4207, -0.44711, 0.06312, -0.0109273, 0.110051, 0.372149, 0.507016, 1.2694, -0.294634, -0.793732},
{-0.276455, -0.0704933, 0.0332015, -0.118007, 0.00967585, -0.141329, 0.08596, -0.450738, -0.0448127, -0.048643, -0.0137436, -0.0559237, -0.0418378, 0.0628382, 0.0257331, -0.255408, 0.1632, 0.0439411, 0.00129089, -0.0668563, -0.143516, -0.123363, 0.0419912, -0.24835, 0.0155658, -0.0618358, 0.0597483, -0.0656377, -0.0756729, -0.123951, -0.0675051, -0.240017, 0.0920454, -0.0232958, -0.0606796, -0.0216727, -0.0248739, -0.0816505, -0.183783, -0.225647, -0.0406525, -0.13517, 0.156292, -0.0590724, -0.0843478, -0.0224852, -0.117417, -0.32024, -0.200511, -0.364834, -0.0439938, -0.115453, -0.451926, 0.0186695, -0.127383, -0.409137, -0.638065, -0.37462, 0.145507, 0.408274, -0.215382, -0.0608996, -0.420592, -0.340252, -0.114584, -1.41839},
{-0.107865, -0.348395, -0.110923, -0.295964, -0.054502, -0.504651, -0.167341, 0.134878, -0.422851, -0.230013, -0.145562, -0.110632, 0.0642266, -0.265693, 0.0521187, -0.144654, 0.0668432, -0.0918395, -0.0569995, -0.222374, -0.0524932, -0.0253272, -0.744631, 0.115147, -0.338545, -0.132535, -0.0239094, 0.0575337, -0.142843, -0.221673, -0.111338, 0.37879, -0.0700566, -0.285989, -0.394341, -0.243096, -0.193534, 0.328615, 0.261985, 0.0243799, -0.157387, 0.0712547, -0.106479, -0.0664873, 0.133356, -0.136354, 0.470937, 0.415358, -0.283398, -0.22206, -0.181531, 0.0061901, -0.286493, -0.212447, -0.106814, 0.476283, -0.367457, -0.00298848, -0.00357693, -0.0432856, -0.730125, -0.366868, -0.470763, -0.332001, -0.210844, -0.248837},
{0.37457, -0.279809, 0.0613912, 0.242581, -0.109523, 0.190631, -0.135705, -0.149344, -0.128317, -0.548184, -0.206582, 0.00181097, -0.0569216, 0.019876, -0.23291, -0.146843, -0.0550423, -0.461936, -0.0628145, -0.1017, -0.0321291, 0.00385338, -0.153496, 0.115252, -0.170012, -0.11412, -0.161839, 0.0410127, -0.10233, -0.089659, -0.140952, 0.0239494, 0.363088, -0.519207, -0.175694, -0.235127, -0.102786, -0.181737, -0.13393, -0.124695, 1.02477, -0.98107, -0.213534, -0.29072, -0.0599971, 0.0232913, -0.361658, 0.227159, 1.17423, -1.03872, -0.320996, -0.17568, 0.071654, -0.0638821, -0.578919, -0.155612, -0.196433, -1.20031, -0.301449, -0.238936, 0.00465959, 0.250866, -0.175197, -0.00518985, -0.64286, 0.36601},
{-0.061901, -0.171439, -0.234008, -0.401664, 0.0293663, -0.31887, 0.207879, -0.576745, -0.0864254, -0.461942, -0.173437, -0.237036, 0.264933, -0.380467, 0.0498725, -0.503374, 0.0383165, -0.107044, 0.282774, -0.113334, -0.00715012, 0.0717902, 0.160561, -0.0421966, 0.185692, -0.0794135, -0.580053, -0.117868, -0.0494212, -0.268695, -0.535556, -0.27672, -0.0755366, -0.226662, -0.188463, -0.16451, 0.123748, -0.0521674, 0.0580051, -0.357549, 0.0325112, 0.190812, -0.163721, -0.0419922, 0.370405, -0.471179, -0.0114886, 0.117093, -0.287541, -0.360134, -0.681898, 0.0102826, 0.0523592, 0.274915, 0.0248037, 0.115092, -0.328026, -0.197486, -0.377283, 0.208705, 0.0711906, -0.199166, -0.362171, -0.415655, -0.235857, -0.155711},
{-0.286913, 0.114204, -0.066575, -0.0847496, -0.03615, -0.042419, -0.0452575, -0.0824167, -0.0284817, -0.0251098, 0.0369267, 0.0308054, 0.0350272, 0.0156698, 0.00594641, -0.0918156, 0.0398359, -0.0182966, -0.0291066, 0.0531394, -0.0168813, -0.0418871, 0.0137613, -0.0805333, -0.500074, 0.201319, 0.182981, 0.14442, -0.018927, -0.0599264, -0.037708, -0.0429841, -0.869896, 0.190789, 0.200813, 0.0745934, -0.0391137, -0.0680787, -0.032355, -0.0859613, -0.134413, -0.0590984, 0.0577319, 0.0598544, -0.0596401, -0.0347803, -0.0181827, -0.0401704, -0.0247409, -0.0582802, -0.00611287, 0.0556465, 0.00428673, -0.00219387, -0.0133705, -0.0187864, -0.119888, 0.0827027, -0.102311, 0.170896, 0.00936183, -0.0159249, -0.0331631, -0.223264, -0.0375729, 2.04532},
{-0.0382599, 0.131361, -0.156347, -0.536591, -0.0221018, -0.164295, -0.117412, -0.540829, -0.252929, -0.0519731, -0.460071, -0.00622653, -0.162211, 0.30095, -0.619818, -0.608549, -0.119957, -0.421084, -0.18992, 0.144727, -0.242034, 0.0202212, -0.34116, 0.0151944, -0.00679991, -0.146431, -0.580143, -0.00893127, -0.217709, -0.459406, -0.453777, -0.454845, -0.475992, 0.0213326, -0.37425, 0.037047, -0.429792, 0.202227, 0.286681, -0.0541971, -0.0264187, -0.473796, -0.272829, -0.466025, -0.418876, -0.252661, -0.369076, -0.0402974, -0.227042, -0.132341, -0.0614295, 0.196977, -0.36077, 0.210324, -0.114785, 0.206653, -0.252077, -0.0203012, -0.0847267, 0.17994, 0.139723, 0.106944, -0.660552, 0.227232, -0.29967, 0.0111818},
{-0.0913894, 0.773022, 0.376865, 0.128003, 0.400139, -0.109464, 0.403084, 0.171411, -0.484916, -0.820875, -1.19249, -1.09251, -0.52269, -0.202937, -0.111453, 0.0164904, -0.362649, -0.195986, -0.192451, -0.350022, -0.619874, -0.079684, -0.113752, 0.216299, 0.177521, 0.00996212, -0.224115, -0.266539, 0.0453748, -0.144688, -0.170862, 0.333345, -0.293275, 0.179574, -0.156987, -0.30013, -0.137828, -0.111019, -0.0505975, 0.235086, -0.124009, 0.129388, 0.246397, 0.0344842, 0.121811, -0.00633118, -0.0675759, -0.0197772, 0.14615, -0.616644, -0.091624, -0.184118, -0.0294189, -0.169039, -0.0566137, -0.411506, -0.546504, -0.270193, -0.167373, 0.245872, -0.201994, 0.0901662, 0.211091, -0.161759, -0.337378, 0.205201},
{-0.363608, 0.275544, -0.189849, 0.0564711, 0.16923, -0.231605, 1.60841, -13.4528, 0.351298, 0.551119, 0.17014, 0.22897, 0.384734, 0.564447, 1.55265, 1.37988, -0.0520628, 0.227511, -0.00625006, 0.180522, 0.206486, 0.29339, 0.543644, -0.29563, 0.0130926, 0.145907, 0.100723, 0.0473836, 0.197846, 0.28495, 0.285125, 0.156996, 0.0131644, 0.122926, 0.148455, 0.0194117, 0.0791394, 0.206905, 0.239788, 0.0595309, -0.0794644, 0.192663, 0.0216783, 0.133422, 0.104583, -0.0178287, 0.186693, -0.221319, 0.35065, 0.232952, 0.189781, 0.128235, 0.138029, 0.302425, 0.756119, 0.195463, -0.206672, 0.183873, -0.0549898, -0.02969, -0.0226925, -0.030332, 0.529027, -0.206136, 0.686689, 0.317784},
{0.098905, -0.249598, -0.0175435, -0.0675067, -0.13411, -0.0793749, -0.0809423, -0.90442, -0.278877, -0.145321, -0.116506, -0.196178, -0.174265, 0.0400309, -0.0416229, -0.122187, -0.180575, -0.0804498, 0.0699876, -0.144579, -0.24376, -0.0436452, -0.0298694, -0.0864368, -0.0780526, -0.158648, -0.174343, -0.177543, -0.103442, -0.0767563, -0.123407, -0.123111, -0.0947968, -0.228334, -0.0378521, -0.103496, -0.0798062, -0.232674, -0.260988, -0.209231, 0.242801, -0.112064, 0.0296651, -0.0621614, 0.010013, 0.113356, -0.0524071, -0.213171, 0.150355, -0.252868, -0.075547, -0.0947496, -0.0292862, -0.0605924, -0.204877, -0.374447, 0.470359, -0.142984, -0.131398, 0.00834346, 0.0803918, -0.10314, -0.261045, -0.256192, -0.102452, -1.18388},
{-0.184009, -0.580431, -1.52079, -1.45062, -1.22559, -1.2029, -0.68487, -0.0429101, -0.138221, 0.059759, -0.193679, -0.441976, -0.449011, -0.14973, 0.0207714, -0.180412, -0.00427456, -0.011061, -0.011019, -0.327924, -0.304287, -0.0212811, 0.0691436, 0.0652084, 0.0232405, -0.105165, -0.0683154, -0.236423, -0.17414, -0.0642972, -0.0232011, -0.0140344, 0.0407012, -0.105754, -0.033693, -0.111713, -0.0170615, 0.00839306, -0.0222756, -0.106669, 0.0029232, -0.0636475, -0.041684, 0.00651422, 0.0958798, 0.138757, -0.0567424, 0.000573135, -0.0588681, -0.13999, -0.0645483, 0.0287726, 0.0274441, -0.0463817, -0.173469, -0.0952063, -0.0280136, -0.0897203, -0.0659659, 0.23298, -0.0202957, 0.0628929, -0.0969529, -0.0233181, -0.0985082, 0.978639},
{-0.325864, -0.331727, -0.0412118, 0.0657918, -0.165206, 0.101387, -0.389584, -0.111707, -0.386678, -0.330455, -0.108242, -0.223468, -0.163857, -0.240524, -0.423021, 0.500649, -0.112867, -0.081339, -0.176547, -0.255179, -0.223304, -0.148971, 0.0889317, 1.31961, -0.147607, -0.210523, -0.314215, -0.125193, 0.080636, 0.165524, 0.384852, 0.660977, -0.0850616, -0.236725, -0.233944, -0.177003, 0.0123171, 0.214686, 0.305492, 0.688878, -0.0374584, -0.186052, -0.0384508, -0.21411, -0.241698, 0.0434577, -0.0838152, 0.916528, -0.27218, -0.40976, -0.133735, -0.276324, -0.320166, -0.363854, -0.704758, -0.2272, -0.289501, -0.563955, -0.1744, 0.955296, -0.215814, -0.223223, -0.554148, -1.06916, -0.551062, -0.34714},
{-0.637485, -0.295879, -0.274499, -0.0848531, -0.102004, -0.248942, -0.3516, 0.248578, -0.354462, -0.0625305, -0.0963325, -0.0865564, -0.0957954, -0.0177752, -0.0458093, -0.193211, -0.0407996, -0.110582, -0.135835, -0.179035, -0.177045, -0.0752084, -0.0281114, -0.024339, -0.0240995, -0.0840089, -0.0382656, -0.105582, -0.0136377, -0.0880779, -0.0143435, 0.130102, -0.138424, -0.0983213, -0.135446, -0.018675, -0.0871838, 0.0587607, -0.155398, -0.29788, -0.167396, -0.321062, -0.200353, 0.134023, 0.20795, -0.249528, -0.423356, -0.379229, -0.0896009, -0.571544, -0.0684314, 0.256662, 0.513878, 0.108035, -0.411786, -0.911488, -0.564078, -0.0670557, 0.658916, 0.285988, 0.604337, 1.32956, 0.00742518, -1.25101, -0.44813, -0.367059},
{0.364473, -0.129498, -0.00792867, -0.0181524, -0.0108033, 0.0281469, -0.0100994, 0.179928, 0.175376, -0.196008, -0.0737509, -0.000418137, -0.00474848, -0.056906, 0.0329204, -0.0920563, 0.00336346, -0.06535, -0.0479434, -0.0107314, 0.0027943, -0.0087977, -0.0358852, -0.0073553, -0.0791924, -0.0505453, -0.0634317, -0.0159404, 0.010246, -0.00905536, -0.0260627, -0.058841, -0.334339, -0.18464, -0.147739, -0.105869, 0.0293753, 0.0188184, 0.0276644, 0.00772626, -0.0319416, -0.400643, -0.269364, -0.124015, -0.0339258, 0.00719548, -0.11156, -0.00115154, -1.1109, -0.627019, -0.394982, -0.136722, -0.0690069, -0.0581378, -0.19363, -0.108899, -3.86083, -0.81476, 0.0829799, -0.444835, -0.0950532, 0.0773309, 0.148658, 0.580543, -0.256314, 1.16036},
{-0.410179, -0.0810016, 0.121036, -0.0220343, -0.0517129, 0.0285272, -0.120435, 0.0417381, -0.0723306, -0.184317, 0.098464, -0.0949048, -0.0165039, 0.00447798, -0.0831884, -0.15601, -0.0109366, 0.0187448, 0.105186, -0.0822343, -0.0509873, -0.0561532, 0.000326821, 0.0502484, 0.167868, -0.130137, -0.150387, -0.121853, -0.0186717, -0.0427575, 0.0186628, -0.079146, 0.359259, -0.13097, -0.165033, -0.0610278, -0.000181355, 0.00706328, 0.0147957, -0.0804308, 0.0644308, 0.0122857, -0.00160406, -0.101517, -0.0273614, 0.0989186, -0.000162996, 0.0324547, -0.112387, -0.12199, 0.0309494, -0.0999285, -0.0679436, -0.022424, -0.161485, -0.133478, -0.161893, -0.101694, 0.0386151, 0.641808, -0.0598969, 0.0534214, -0.123396, -0.125591, -0.125311, 2.49796},
{-0.192259, 0.0899855, -0.159101, -0.0631239, 0.0642682, -0.028239, 0.0493676, -0.125662, -0.443171, 0.0791157, -0.0688039, 0.0632036, 0.0469996, 0.0225203, 0.0578819, 0.0557432, -0.239636, -0.135496, -0.139566, 0.121968, 0.000124178, -0.00217844, 0.0193402, -0.094898, -1.47816, 0.153333, 0.245462, 0.210374, -0.0238777, -0.01283, -0.0279746, 0.0764632, -2.28296, 0.166529, 0.31143, 0.0733228, -0.0501701, -0.0710171, -0.0225045, -0.00776907, -0.569377, -0.164639, 0.07662, 0.152107, -0.0380286, -0.139171, -0.0339865, -0.0571898, -0.522465, -0.013239, -0.110793, 0.123314, 0.0483504, 0.0051078, 0.109518, 0.144918, -0.606122, 0.0983619, -0.0732757, -0.164404, 0.0518662, -0.0374331, 0.0404434, -0.0135457, -0.0147274, -0.928762},
{-0.0359539, -0.564984, 0.0716333, -0.382152, 0.116481, 0.093759, -0.428006, 0.298464, -0.294667, 0.021012, -0.14939, -0.100773, -0.218283, -0.516283, -0.294566, -0.429518, -0.254951, -0.225141, 0.16313, -0.0166134, -0.076872, -0.511982, -0.29884, -0.323636, 0.0369815, -0.238264, 0.206243, 0.270875, -0.176096, 0.0439373, 0.193421, 0.019063, -0.00205144, -0.13, -0.552551, 0.267052, -0.255781, -0.0589367, -0.184186, -0.0988881, -0.163024, -0.206637, -0.452107, 0.140602, 0.0122329, 0.0209872, 0.170767, 0.0546292, 0.121756, 0.149407, -0.577488, -0.480726, 0.238695, -0.201031, -0.0145611, -0.00849272, 0.18241, -0.0895626, -0.0239905, -0.666275, -0.449746, -0.206462, 0.0827767, -0.62219, -0.63646, -0.130895},
{-5.14709, -0.861165, 0.064737, -0.169154, -0.0448564, 0.0582422, 0.145782, 0.460537, -0.759663, -0.481819, -0.274067, -0.111953, -0.0355784, -0.0459329, -0.134549, -0.0329914, 0.0403201, -0.28765, -0.269367, -0.0962871, -0.0411871, 0.00217977, -0.0259398, -0.0294247, -0.100204, -0.126123, -0.0779125, -0.0758535, -0.00841188, -0.000980089, -0.0022206, 0.0479429, -0.00171211, -0.00559687, -0.025383, -0.00248852, -0.00365015, 0.0162781, 0.00641192, -0.00498271, -0.0310048, 0.00824036, 0.021382, 0.0409503, 0.0275703, -0.0559258, -0.0313774, -0.0241501, 0.156849, -0.151651, 0.00462145, 0.00087182, 0.0274278, -0.0229197, 0.0849209, -0.00113852, 0.598498, 0.00189328, 0.000455038, -0.0794108, -0.042227, 0.0660906, -0.0206612, 0.357878, -0.172996, 1.40534},
{-0.489759, -0.3763, -0.423565, -0.436012, -0.951449, -0.406752, -0.650632, -0.954038, 0.31289, 0.0484163, 0.320769, 0.0216643, 0.221768, 0.224041, 0.01893, 0.27821, -0.127405, 0.0537277, 0.174118, 0.0880696, 0.332773, 0.0267238, 0.119466, 0.0835003, -0.300755, -0.0748853, -0.0212978, -0.03743, -0.0422276, 0.083761, 0.267116, -0.256702, -0.128435, -0.123501, -0.0775104, -0.0242792, -0.0721849, 0.0207333, 0.053996, -0.488137, 0.0794998, -0.164713, -0.301708, -0.158712, -0.123405, 0.0987765, -0.247811, 0.101864, -0.369711, 0.0154314, -0.0287821, -0.010745, -0.0456558, 0.0185526, -0.37015, -0.0736177, -0.301544, -0.184324, -0.212223, 0.341987, -0.392212, -0.382192, -0.604494, -0.166441, -0.0842847, -0.381546},
{0.222314, -0.806012, -0.398748, 0.0543895, 0.18168, -0.123859, -0.171301, -0.029749, 0.275396, -0.0872533, -0.671559, 0.214056, 0.327218, -0.0585637, 0.234795, 0.0826843, 0.100389, -0.0771233, -0.410885, -0.248913, -0.533052, -0.428259, -0.363094, 0.0644832, -0.202152, -0.377538, -0.141473, -0.237593, 0.03028, -0.17757, 0.299862, -0.00415303, -0.128611, -0.223369, -0.195222, -0.310724, -0.475516, -0.39969, -0.0742935, -0.396142, 0.305703, -0.565324, -0.25088, 0.110922, 0.241662, -0.502675, 0.201911, -0.0596637, 0.0172368, -0.623902, -0.432001, 0.16293, -0.2181, -0.197218, -0.399332, -0.350017, -0.524247, -0.0431684, 0.604779, 0.108155, 0.0482861, 0.201439, -0.468634, -0.808462, -0.642526, 0.248213},
{0.207193, 0.366093, 0.123486, -0.115911, -0.0514715, -0.1601, 0.162132, -1.41438, 0.253438, -0.0930092, 0.334951, -0.090444, 0.0699035, 0.113301, 0.156142, 0.185285, 0.0372824, 0.0904725, 0.222244, 0.0134797, -0.0353292, -0.166568, 0.142364, -0.0765358, -0.0565708, 0.0312876, -0.0227878, -0.0318798, 0.0267318, -0.00471046, 0.115354, -0.0770861, -0.175234, 0.0153556, -0.00654349, 0.0813001, 0.0933089, 0.0897502, 0.0732503, -0.109318, -0.0363348, -0.00071739, 0.018424, 0.0577053, 0.0722556, 0.0874826, -0.0115361, 0.0234531, 0.120276, 0.0355296, 0.12933, 0.0386771, 0.055634, 0.0350382, 0.0449168, 0.180419, -0.0225118, 0.0947338, -0.00505691, -0.411654, 0.106819, 0.0851661, 0.128769, -0.153397, 0.12455, -0.858471},
{-0.0564821, -0.180582, -0.0344376, -0.0437726, -0.0482129, -0.0225563, -0.184155, 0.995836, -0.107247, -0.118683, -0.127785, -0.111048, -0.115805, -0.0912132, -0.0762419, -0.262176, -0.0623511, -0.0808021, 0.00976833, -0.0870486, -0.0525387, 0.0083799, -0.0967069, -0.06469, -0.0909432, -0.0912458, -0.102399, -0.0877297, -0.0636055, -0.0775203, -0.0882162, -0.10088, 0.0340638, -0.131986, -0.101045, -0.114955, -0.0762748, -0.143518, -0.124439, -0.194669, 0.0223683, -0.133092, -0.0276392, -0.112936, -0.0871287, 0.0231382, -0.123872, -0.257364, -0.195065, -0.217731, -0.0949892, -0.160464, -0.17723, -0.139696, -0.20909, -0.506581, -0.321861, -0.272394, -0.0912509, 0.570805, -0.184135, -0.183202, -0.389773, -0.17642, -0.186378, -2.82108},
{-3.02957, -0.549427, 0.0354355, -0.119067, -0.026728, -0.018225, 0.0434393, 0.367574, -0.552971, -0.303629, -0.154074, -0.100105, -0.0303506, -0.024326, -0.101127, -0.0889273, 0.0325685, -0.175971, -0.141483, -0.075978, -0.0472926, -0.00436166, -0.00556635, -0.0283365, -0.0478484, -0.0906399, -0.0496495, -0.0552723, -0.0143203, 0.000686791, -0.00274269, 0.0159599, 0.0167969, 0.0397994, -0.0114807, 0.00176258, -0.00762436, 0.00302686, 0.00161047, -0.0314282, -0.0954715, 0.0993698, 0.07207, 0.0372064, 0.0369474, -0.0294327, 0.0143905, -0.0462106, 0.168299, 0.00670745, 0.0808854, 0.0258775, 0.0216276, -0.00697869, 0.0833965, 0.0133522, 0.771291, 0.124356, -0.0111704, -0.326119, -0.018393, 0.0229591, 0.00339749, 0.143728, -0.0717697, -1.76165}};

Board::Board(Board* copyFrom)
{
  if(copyFrom == NULL)
  {
    // fresh start
    black.set(4 + 8 * 3);
    black.set(3 + 8 * 4);
    white.set(3 + 8 * 3);
    white.set(4 + 8 * 4);
  }
  else
  {
    black = copyFrom->black;
    white = copyFrom->white;
  }
  searchX = 0;
  searchY = -1; // We'll start by adding one.
}

Board::~Board()
{
  //no cleanup necessary
}

Board* Board::copy()
{
  return new Board(this);
}

void Board::print()
{
  cerr << "  0 1 2 3 4 5 6 7" << endl;
  for(int y = 0; y < 8; y++)
  {
    cerr << y << " ";
    for(int x = 0; x < 8; x++)
    {
      char p = '-';
      if(occupant(x, y) == BLACK) p = 'B';
      if(occupant(x, y) == WHITE) p = 'W';
      
      cerr << p << " ";
    }
    cerr << endl;
  }
}

bool Board::onBoard(int x, int y)
{
  return x >= 0 && x < 8 && y >= 0 && y < 8;
}

Side Board::occupant(int x, int y)
{
  return (Side) (black[x + 8 * y] * BLACK + white[x + 8 * y] * WHITE);
}

void Board::set(Side s, int x, int y)
{
  black[x + 8 * y] = (s == BLACK);
  white[x + 8 * y] = !black[x + 8 * y];
}

void Board::resetHypotheticalFutures()
{
  searchX = 0;
  searchY = -1;
}

Board* Board::nextHypotheticalFuture(Side s, Move** m)
{
  Board* retVal = NULL;
  int x;
  int y;
  for(; searchX < 8; searchX++)
  {
    for(searchY++; searchY < 8; searchY++) // Start on the next one.
    {
      /* Determine whether (searchX, searchY) is a valid move for s, and
       * return a copy of this board with m made for s if it is a valid
       * move. */
      
      if(occupant(searchX, searchY) == NONE)
      {
        for(int dx = -1; dx <= 1; dx++)
        {
          for(int dy = -1; dy <= 1; dy++)
          {
            if(dx == 0 && dy == 0) continue;
            
            x = searchX + dx;
            y = searchY + dy;
            if(onBoard(x, y) && occupant(x, y) == -s)
            {
              do
              {
                x += dx;
                y += dy;
              } while(onBoard(x, y) && occupant(x, y) == -s);
              
              if(onBoard(x, y) && occupant(x, y) == s)
              {
                // We've got a move.
                if(retVal == NULL) retVal = copy();
                do
                {
                  x -= dx; y -= dy;
                  retVal->set(s, x, y);
                } while(onBoard(x, y) && occupant(x, y) == -s);
              }
            }
          }
        }
      }
      
      if(retVal != NULL)
      {
        *m = new Move(searchX, searchY);
        return retVal;
      }
    }
    searchY = -1; //we'll be starting by adding one
  }
  return NULL;
}

/* Returns the winner assuming the game is over. */
Side Board::winner()
{
  int diff = black.count() - white.count();
  if(diff > 0) diff = 1;
  if(diff < 0) diff = -1;
  return (Side) (diff * BLACK);
}

float Board::sigmoid(float in)
{
  return 1.0/(1.0 + exp(-in));
}

/* Returns how good it is for Black that currentPlayer faces this board. */
int Board::evaluateForBlack(Side currentPlayer)
{
  float inputs[65];
  
  for(int y = 0; y < 8; y++)
  {
    for(int x = 0; x < 8; x++)
    {
      if(occupant(x, y) == BLACK)
      {
        inputs[8 * y + x] = 0;
      }
      else if(occupant(x, y) == NONE)
      {
        inputs[8 * y + x] = 0.5;
      }
      else
      {
        inputs[8 * y + x] = 1;
      }
    }
  }
  
  inputs[64] = (currentPlayer == BLACK? 0 : 1);
  
  float eval = 0;
  float evalPiece;
  for(int i = 0; i < 42; i++)
  {
    evalPiece = 0;
    for(int j = 0; j < 65; j++)
    {
      evalPiece += WEIGHTS[i][j] * inputs[j];
    }
    eval += sigmoid(evalPiece) * WEIGHTS[i][65];
  }
  
  return (int) (10000 * eval);
}

int Board::evaluateForBlackNaively()
{
    int eval = 0;
    int weights[8][8] = { {20, 6,  6,  6,  6,  6, 6, 20},
                          {6, -8, -5, -5, -5, -5, -8, 6},
                          {6, -5,  1,  1,  1,  1, -5, 6},
                          {6, -5,  1,  1,  1,  1, -5, 6},
                          {6, -5,  1,  1,  1,  1, -5, 6},
                          {6, -5,  1,  1,  1,  1, -5, 6},
                          {6, -8, -5, -5, -5, -5, -8, 6},
                          {20, 6,  6,  6,  6,  6, 6, 20}};
    for(int i = 0; i < 8; i++)
    {
        for(int j = 0; j < 8; j++)
        {
            eval += occupant(i, j) * BLACK * weights[i][j];
        }
    }
    return eval;
}
